const unsigned char AI_powered_fan[] = {
  0x1c, 0x00, 0x00, 0x00, 0x54, 0x46, 0x4c, 0x33, 0x14, 0x00, 0x20, 0x00,
  0x1c, 0x00, 0x18, 0x00, 0x14, 0x00, 0x10, 0x00, 0x0c, 0x00, 0x00, 0x00,
  0x08, 0x00, 0x04, 0x00, 0x14, 0x00, 0x00, 0x00, 0x1c, 0x00, 0x00, 0x00,
  0x8c, 0x00, 0x00, 0x00, 0xe4, 0x00, 0x00, 0x00, 0x90, 0x05, 0x00, 0x00,
  0xa0, 0x05, 0x00, 0x00, 0x20, 0x0b, 0x00, 0x00, 0x03, 0x00, 0x00, 0x00,
  0x01, 0x00, 0x00, 0x00, 0x04, 0x00, 0x00, 0x00, 0x22, 0xfa, 0xff, 0xff,
  0x0c, 0x00, 0x00, 0x00, 0x1c, 0x00, 0x00, 0x00, 0x3c, 0x00, 0x00, 0x00,
  0x0f, 0x00, 0x00, 0x00, 0x73, 0x65, 0x72, 0x76, 0x69, 0x6e, 0x67, 0x5f,
  0x64, 0x65, 0x66, 0x61, 0x75, 0x6c, 0x74, 0x00, 0x01, 0x00, 0x00, 0x00,
  0x04, 0x00, 0x00, 0x00, 0x90, 0xff, 0xff, 0xff, 0x0a, 0x00, 0x00, 0x00,
  0x04, 0x00, 0x00, 0x00, 0x08, 0x00, 0x00, 0x00, 0x6f, 0x75, 0x74, 0x70,
  0x75, 0x74, 0x5f, 0x30, 0x00, 0x00, 0x00, 0x00, 0x01, 0x00, 0x00, 0x00,
  0x04, 0x00, 0x00, 0x00, 0x12, 0xfb, 0xff, 0xff, 0x04, 0x00, 0x00, 0x00,
  0x0c, 0x00, 0x00, 0x00, 0x6b, 0x65, 0x72, 0x61, 0x73, 0x5f, 0x74, 0x65,
  0x6e, 0x73, 0x6f, 0x72, 0x00, 0x00, 0x00, 0x00, 0x02, 0x00, 0x00, 0x00,
  0x34, 0x00, 0x00, 0x00, 0x04, 0x00, 0x00, 0x00, 0xdc, 0xff, 0xff, 0xff,
  0x0d, 0x00, 0x00, 0x00, 0x04, 0x00, 0x00, 0x00, 0x13, 0x00, 0x00, 0x00,
  0x43, 0x4f, 0x4e, 0x56, 0x45, 0x52, 0x53, 0x49, 0x4f, 0x4e, 0x5f, 0x4d,
  0x45, 0x54, 0x41, 0x44, 0x41, 0x54, 0x41, 0x00, 0x08, 0x00, 0x0c, 0x00,
  0x08, 0x00, 0x04, 0x00, 0x08, 0x00, 0x00, 0x00, 0x0c, 0x00, 0x00, 0x00,
  0x04, 0x00, 0x00, 0x00, 0x13, 0x00, 0x00, 0x00, 0x6d, 0x69, 0x6e, 0x5f,
  0x72, 0x75, 0x6e, 0x74, 0x69, 0x6d, 0x65, 0x5f, 0x76, 0x65, 0x72, 0x73,
  0x69, 0x6f, 0x6e, 0x00, 0x0e, 0x00, 0x00, 0x00, 0xa8, 0x04, 0x00, 0x00,
  0xa0, 0x04, 0x00, 0x00, 0x70, 0x04, 0x00, 0x00, 0x54, 0x04, 0x00, 0x00,
  0x24, 0x04, 0x00, 0x00, 0x14, 0x02, 0x00, 0x00, 0x04, 0x01, 0x00, 0x00,
  0xb4, 0x00, 0x00, 0x00, 0xac, 0x00, 0x00, 0x00, 0xa4, 0x00, 0x00, 0x00,
  0x9c, 0x00, 0x00, 0x00, 0x94, 0x00, 0x00, 0x00, 0x74, 0x00, 0x00, 0x00,
  0x04, 0x00, 0x00, 0x00, 0xc6, 0xfb, 0xff, 0xff, 0x04, 0x00, 0x00, 0x00,
  0x60, 0x00, 0x00, 0x00, 0x0c, 0x00, 0x00, 0x00, 0x08, 0x00, 0x0e, 0x00,
  0x08, 0x00, 0x04, 0x00, 0x08, 0x00, 0x00, 0x00, 0x10, 0x00, 0x00, 0x00,
  0x28, 0x00, 0x00, 0x00, 0x00, 0x00, 0x06, 0x00, 0x08, 0x00, 0x04, 0x00,
  0x06, 0x00, 0x00, 0x00, 0x04, 0x00, 0x00, 0x00, 0x01, 0x00, 0x00, 0x00,
  0xea, 0x03, 0x00, 0x00, 0x0c, 0x00, 0x18, 0x00, 0x14, 0x00, 0x10, 0x00,
  0x0c, 0x00, 0x04, 0x00, 0x0c, 0x00, 0x00, 0x00, 0x11, 0xcb, 0x38, 0xf1,
  0x2f, 0x18, 0x93, 0x81, 0x02, 0x00, 0x00, 0x00, 0x02, 0x00, 0x00, 0x00,
  0x04, 0x00, 0x00, 0x00, 0x06, 0x00, 0x00, 0x00, 0x32, 0x2e, 0x32, 0x30,
  0x2e, 0x30, 0x00, 0x00, 0x32, 0xfc, 0xff, 0xff, 0x04, 0x00, 0x00, 0x00,
  0x10, 0x00, 0x00, 0x00, 0x31, 0x2e, 0x31, 0x34, 0x2e, 0x30, 0x00, 0x00,
  0x00, 0x00, 0x00, 0x00, 0x00, 0x00, 0x00, 0x00, 0xb4, 0xf6, 0xff, 0xff,
  0xb8, 0xf6, 0xff, 0xff, 0xbc, 0xf6, 0xff, 0xff, 0xc0, 0xf6, 0xff, 0xff,
  0x5e, 0xfc, 0xff, 0xff, 0x04, 0x00, 0x00, 0x00, 0x40, 0x00, 0x00, 0x00,
  0x80, 0xa8, 0xd5, 0xbc, 0x00, 0x00, 0x00, 0x00, 0x37, 0x9f, 0x28, 0x3e,
  0x30, 0x6d, 0xed, 0xbd, 0x7d, 0xce, 0x42, 0x3c, 0xd8, 0x45, 0xde, 0x3d,
  0xe4, 0x63, 0x51, 0xbc, 0x0f, 0xeb, 0x62, 0x3d, 0x0b, 0xaf, 0xa0, 0x3d,
  0x29, 0x7b, 0x6f, 0x3e, 0x18, 0x6b, 0xd1, 0x3d, 0x48, 0x71, 0xfe, 0xbd,
  0x68, 0x5e, 0x27, 0x3e, 0x38, 0x75, 0x8b, 0x3d, 0x78, 0x2b, 0xd3, 0x3d,
  0x42, 0x19, 0x09, 0x3e, 0xaa, 0xfc, 0xff, 0xff, 0x04, 0x00, 0x00, 0x00,
  0x00, 0x01, 0x00, 0x00, 0x35, 0x80, 0x70, 0xbe, 0xeb, 0x15, 0x00, 0xbf,
  0xce, 0x41, 0xb3, 0xbe, 0x29, 0x3d, 0x83, 0x3e, 0x08, 0xfd, 0xda, 0xbe,
  0x80, 0x0d, 0x1e, 0xbe, 0xb8, 0xb0, 0x72, 0xbe, 0x2f, 0x33, 0xbc, 0xbe,
  0x8e, 0x42, 0x43, 0x3f, 0x08, 0xa9, 0xeb, 0xbe, 0x76, 0x1e, 0x52, 0x3e,
  0x88, 0x7b, 0x8b, 0x3e, 0xa2, 0xa2, 0x10, 0x3f, 0x5f, 0x5f, 0xc4, 0x3e,
  0x62, 0xc9, 0xc8, 0xbd, 0x68, 0x37, 0x00, 0xbf, 0x69, 0x41, 0x5e, 0xbc,
  0xb2, 0xeb, 0x4a, 0x3f, 0x41, 0xae, 0xd9, 0xbe, 0x20, 0xf8, 0x89, 0xbd,
  0x1b, 0x4b, 0x25, 0xbf, 0x4e, 0xa0, 0xe5, 0x3c, 0x08, 0x8e, 0x8b, 0x3e,
  0x5b, 0xb0, 0xe4, 0xbe, 0xa3, 0x46, 0x89, 0xbe, 0x83, 0x6f, 0x0a, 0x3f,
  0x45, 0x61, 0xfb, 0x3e, 0xe3, 0x63, 0x0f, 0x3e, 0xc0, 0x5b, 0x4f, 0xbf,
  0xe4, 0x78, 0xf8, 0xba, 0x65, 0xcb, 0x05, 0x3f, 0x69, 0x19, 0xd5, 0xbe,
  0xe1, 0x94, 0x3e, 0x3f, 0x5d, 0x15, 0x67, 0xbe, 0x51, 0xb3, 0xa7, 0xbe,
  0x02, 0x3f, 0x30, 0x3d, 0x02, 0xe8, 0x1e, 0x3f, 0x01, 0xe7, 0xf6, 0x3e,
  0x5f, 0x09, 0xbd, 0x3e, 0xf3, 0xb7, 0xd3, 0x3d, 0x9c, 0x32, 0xd1, 0xbd,
  0xb8, 0xb0, 0x1b, 0xbe, 0x88, 0x43, 0xfc, 0x3e, 0x4a, 0x51, 0x0b, 0xbf,
  0xc4, 0xa9, 0x0b, 0xbf, 0xf5, 0xb3, 0xb1, 0x3e, 0x29, 0xac, 0xbf, 0xbd,
  0x21, 0x17, 0xe2, 0x3e, 0x13, 0xe0, 0x77, 0xbd, 0xa3, 0x83, 0x11, 0xbf,
  0x4b, 0x38, 0x13, 0x3f, 0xfc, 0xab, 0xa8, 0xbe, 0x2e, 0x75, 0x04, 0x3f,
  0xcb, 0x1b, 0xd0, 0xbe, 0x30, 0xe4, 0xaa, 0x3e, 0xf6, 0x1d, 0xda, 0x3e,
  0xd5, 0x5e, 0x05, 0xbf, 0x8e, 0x9c, 0x55, 0x3f, 0xa0, 0xb3, 0x30, 0x3e,
  0xf1, 0xe4, 0x4e, 0x3e, 0x3b, 0x01, 0xa2, 0xbd, 0x6d, 0x53, 0x9d, 0xbe,
  0x37, 0xa8, 0x20, 0x3f, 0x47, 0x42, 0x04, 0xbf, 0xb6, 0xfd, 0xff, 0xff,
  0x04, 0x00, 0x00, 0x00, 0x00, 0x02, 0x00, 0x00, 0x0c, 0x7e, 0x8c, 0xb9,
  0xa0, 0x13, 0xe8, 0x3d, 0xe9, 0x01, 0x98, 0x3e, 0x4a, 0x8d, 0x12, 0xbf,
  0x5b, 0xd3, 0x1f, 0xbf, 0x4c, 0x23, 0x6c, 0xbd, 0x37, 0xde, 0x6a, 0x3e,
  0x80, 0x9d, 0x27, 0xbe, 0x61, 0x66, 0x60, 0x3f, 0xc8, 0xab, 0x2b, 0xbe,
  0x33, 0x01, 0x55, 0x3e, 0x2a, 0xfb, 0x39, 0xbf, 0x8c, 0x04, 0x7d, 0x3f,
  0x35, 0x7d, 0xaf, 0x3e, 0xa9, 0xae, 0x62, 0xbe, 0x80, 0x02, 0x54, 0x3f,
  0x42, 0xc8, 0xe3, 0xbe, 0x00, 0xf6, 0x30, 0x3b, 0xbf, 0x70, 0x19, 0xbd,
  0xf9, 0xf0, 0xfc, 0x3e, 0x49, 0x45, 0xeb, 0x3e, 0x53, 0xfb, 0x50, 0xbe,
  0xcf, 0x45, 0xc6, 0x3e, 0x86, 0xa1, 0x34, 0xbf, 0xd9, 0x11, 0x80, 0xbe,
  0x15, 0xb6, 0x0a, 0x3c, 0xc2, 0x34, 0xa0, 0x3d, 0x78, 0xe0, 0x69, 0x3e,
  0x12, 0x22, 0x70, 0xbf, 0x93, 0x53, 0x6c, 0xbe, 0x77, 0x0e, 0x18, 0x3f,
  0x06, 0x96, 0xc1, 0xbd, 0x45, 0xd4, 0x8b, 0xbe, 0x20, 0x38, 0x8b, 0x3e,
  0xe3, 0x5d, 0x09, 0x3f, 0x99, 0xbe, 0x87, 0x3e, 0x26, 0x27, 0x18, 0xbf,
  0x4b, 0x48, 0x16, 0x3e, 0xdf, 0x7c, 0xd9, 0xbe, 0xc9, 0xe6, 0x96, 0x3d,
  0x69, 0x12, 0xfb, 0x3e, 0x6f, 0x2b, 0xf9, 0x3e, 0x27, 0xde, 0x03, 0xbf,
  0x46, 0x1c, 0xa7, 0xbe, 0xd0, 0x07, 0xda, 0x3c, 0xdb, 0x2f, 0xd5, 0x3d,
  0x71, 0x1f, 0x23, 0xbf, 0xa0, 0x67, 0xbe, 0xbb, 0x31, 0x64, 0x80, 0x3e,
  0x98, 0xcc, 0xc8, 0x3e, 0x63, 0xbb, 0x36, 0x3f, 0x0c, 0x11, 0x7d, 0xbd,
  0xa8, 0x30, 0x7e, 0x3d, 0x98, 0x0c, 0x00, 0xbf, 0xbc, 0xde, 0xf5, 0xbe,
  0xfc, 0xbc, 0x52, 0xbe, 0xbf, 0x8b, 0x34, 0x3f, 0x28, 0x87, 0x5e, 0x3e,
  0x39, 0x3e, 0xfa, 0x3c, 0x2c, 0x0d, 0x1a, 0xbd, 0x41, 0xf9, 0x27, 0xbd,
  0x04, 0x80, 0x67, 0x3e, 0x1b, 0xda, 0x24, 0xbf, 0x0e, 0x63, 0x8b, 0x3d,
  0xd7, 0x77, 0x75, 0xbe, 0x30, 0xbf, 0xc1, 0x3e, 0x3b, 0x18, 0xc1, 0xbe,
  0x06, 0xab, 0xe2, 0x3e, 0x28, 0xdf, 0x46, 0x3f, 0x6f, 0xa7, 0x3f, 0xbe,
  0xcd, 0xc1, 0xae, 0x3e, 0xf8, 0x2d, 0xb0, 0xbe, 0xcf, 0x7e, 0x6f, 0xbe,
  0xc4, 0x5b, 0xa2, 0x3e, 0xec, 0xcd, 0x04, 0xbf, 0xb2, 0x8f, 0x3b, 0x3f,
  0xf8, 0xeb, 0x76, 0xbf, 0x33, 0x61, 0x4e, 0xbe, 0x1e, 0xe9, 0x25, 0x3f,
  0xe0, 0x89, 0xec, 0xbe, 0x2a, 0xa6, 0x36, 0xbe, 0x6c, 0x10, 0xad, 0x3e,
  0x2f, 0xe9, 0xb4, 0xbb, 0x5f, 0xdf, 0x90, 0xbe, 0xa0, 0xa4, 0x51, 0xbf,
  0xa3, 0x24, 0x09, 0x3f, 0x35, 0x83, 0x5c, 0xbd, 0x5b, 0xf8, 0x01, 0x3f,
  0xee, 0xad, 0x8a, 0x3e, 0x44, 0x92, 0x41, 0x3e, 0xea, 0xde, 0xfe, 0x3e,
  0x91, 0x94, 0x30, 0xbf, 0x4b, 0xd9, 0x66, 0x3f, 0x04, 0xc4, 0xc3, 0x3e,
  0x6f, 0x92, 0xaf, 0xbd, 0x96, 0xfc, 0x33, 0x3f, 0x75, 0x24, 0x79, 0x3e,
  0xdc, 0x60, 0xf2, 0x3e, 0x1b, 0xaa, 0x8c, 0xbb, 0xe1, 0xc6, 0xe2, 0xbe,
  0xa4, 0xc6, 0xb9, 0xbe, 0x88, 0x52, 0xf2, 0xbd, 0xee, 0xb3, 0xb7, 0xbe,
  0x0b, 0xc7, 0xe6, 0x3e, 0x01, 0x30, 0x40, 0x3f, 0x26, 0xef, 0x7a, 0x3e,
  0x30, 0xdd, 0x34, 0x3f, 0xfe, 0x3e, 0x01, 0xbf, 0x35, 0x79, 0x3b, 0x3f,
  0x2c, 0x99, 0x2e, 0x3e, 0x7a, 0x33, 0x9c, 0xbc, 0x99, 0xa2, 0x2a, 0x3f,
  0x7c, 0xde, 0xbc, 0x3e, 0xb8, 0xbd, 0x51, 0xbe, 0x48, 0xfc, 0x12, 0xbf,
  0xd3, 0x1e, 0x2e, 0x3f, 0x60, 0x54, 0x4d, 0x3f, 0x70, 0x20, 0x92, 0xbe,
  0xe4, 0x30, 0x11, 0xbe, 0x1c, 0xf1, 0x47, 0x3d, 0x91, 0x07, 0xf4, 0xbe,
  0x21, 0x31, 0xf9, 0x3e, 0xaf, 0xaa, 0xf4, 0xbe, 0x3a, 0x87, 0xc6, 0x3d,
  0xe5, 0x5a, 0x0e, 0xbf, 0xf0, 0x05, 0x95, 0x3e, 0x85, 0x35, 0x2f, 0x3f,
  0xfa, 0xc4, 0x76, 0xbe, 0xc2, 0xff, 0xff, 0xff, 0x04, 0x00, 0x00, 0x00,
  0x20, 0x00, 0x00, 0x00, 0x63, 0x0d, 0x36, 0xbf, 0x8d, 0xc3, 0x35, 0x3f,
  0x0b, 0x82, 0xa3, 0xbf, 0xf1, 0x02, 0x94, 0xbf, 0x73, 0xe1, 0x8a, 0x3f,
  0xdc, 0xbe, 0x85, 0xbf, 0xa5, 0x73, 0x8d, 0xbe, 0xe7, 0x8b, 0x6d, 0x3f,
  0xee, 0xff, 0xff, 0xff, 0x04, 0x00, 0x00, 0x00, 0x04, 0x00, 0x00, 0x00,
  0x70, 0x13, 0x09, 0xbe, 0x00, 0x00, 0x06, 0x00, 0x08, 0x00, 0x04, 0x00,
  0x06, 0x00, 0x00, 0x00, 0x04, 0x00, 0x00, 0x00, 0x20, 0x00, 0x00, 0x00,
  0xa8, 0x22, 0x8a, 0x3e, 0xc2, 0x0f, 0xd1, 0x3b, 0x91, 0x5e, 0x3e, 0x3e,
  0xf5, 0x69, 0x1c, 0x3e, 0xcc, 0xd5, 0xad, 0x3d, 0x88, 0xa5, 0x19, 0x3e,
  0xa2, 0xe7, 0x0d, 0x3e, 0x13, 0x2d, 0x47, 0xbb, 0x98, 0xfa, 0xff, 0xff,
  0x9c, 0xfa, 0xff, 0xff, 0x0f, 0x00, 0x00, 0x00, 0x4d, 0x4c, 0x49, 0x52,
  0x20, 0x43, 0x6f, 0x6e, 0x76, 0x65, 0x72, 0x74, 0x65, 0x64, 0x2e, 0x00,
  0x01, 0x00, 0x00, 0x00, 0x14, 0x00, 0x00, 0x00, 0x00, 0x00, 0x0e, 0x00,
  0x18, 0x00, 0x14, 0x00, 0x10, 0x00, 0x0c, 0x00, 0x08, 0x00, 0x04, 0x00,
  0x0e, 0x00, 0x00, 0x00, 0x14, 0x00, 0x00, 0x00, 0x1c, 0x00, 0x00, 0x00,
  0x08, 0x01, 0x00, 0x00, 0x0c, 0x01, 0x00, 0x00, 0x10, 0x01, 0x00, 0x00,
  0x04, 0x00, 0x00, 0x00, 0x6d, 0x61, 0x69, 0x6e, 0x00, 0x00, 0x00, 0x00,
  0x04, 0x00, 0x00, 0x00, 0xb0, 0x00, 0x00, 0x00, 0x68, 0x00, 0x00, 0x00,
  0x34, 0x00, 0x00, 0x00, 0x10, 0x00, 0x00, 0x00, 0x00, 0x00, 0x0a, 0x00,
  0x10, 0x00, 0x0c, 0x00, 0x08, 0x00, 0x04, 0x00, 0x0a, 0x00, 0x00, 0x00,
  0x0c, 0x00, 0x00, 0x00, 0x10, 0x00, 0x00, 0x00, 0x01, 0x00, 0x00, 0x00,
  0x01, 0x00, 0x00, 0x00, 0x0a, 0x00, 0x00, 0x00, 0x01, 0x00, 0x00, 0x00,
  0x09, 0x00, 0x00, 0x00, 0x9a, 0xff, 0xff, 0xff, 0x10, 0x00, 0x00, 0x00,
  0x00, 0x00, 0x00, 0x08, 0x0c, 0x00, 0x00, 0x00, 0x10, 0x00, 0x00, 0x00,
  0x44, 0xfb, 0xff, 0xff, 0x01, 0x00, 0x00, 0x00, 0x09, 0x00, 0x00, 0x00,
  0x03, 0x00, 0x00, 0x00, 0x08, 0x00, 0x00, 0x00, 0x03, 0x00, 0x00, 0x00,
  0x02, 0x00, 0x00, 0x00, 0xca, 0xff, 0xff, 0xff, 0x10, 0x00, 0x00, 0x00,
  0x00, 0x00, 0x00, 0x08, 0x10, 0x00, 0x00, 0x00, 0x14, 0x00, 0x00, 0x00,
  0xba, 0xff, 0xff, 0xff, 0x00, 0x00, 0x00, 0x01, 0x01, 0x00, 0x00, 0x00,
  0x08, 0x00, 0x00, 0x00, 0x03, 0x00, 0x00, 0x00, 0x07, 0x00, 0x00, 0x00,
  0x04, 0x00, 0x00, 0x00, 0x01, 0x00, 0x00, 0x00, 0x00, 0x00, 0x0e, 0x00,
  0x16, 0x00, 0x00, 0x00, 0x10, 0x00, 0x0c, 0x00, 0x0b, 0x00, 0x04, 0x00,
  0x0e, 0x00, 0x00, 0x00, 0x18, 0x00, 0x00, 0x00, 0x00, 0x00, 0x00, 0x08,
  0x18, 0x00, 0x00, 0x00, 0x1c, 0x00, 0x00, 0x00, 0x00, 0x00, 0x06, 0x00,
  0x08, 0x00, 0x07, 0x00, 0x06, 0x00, 0x00, 0x00, 0x00, 0x00, 0x00, 0x01,
  0x01, 0x00, 0x00, 0x00, 0x07, 0x00, 0x00, 0x00, 0x03, 0x00, 0x00, 0x00,
  0x00, 0x00, 0x00, 0x00, 0x05, 0x00, 0x00, 0x00, 0x06, 0x00, 0x00, 0x00,
  0x01, 0x00, 0x00, 0x00, 0x0a, 0x00, 0x00, 0x00, 0x01, 0x00, 0x00, 0x00,
  0x00, 0x00, 0x00, 0x00, 0x0b, 0x00, 0x00, 0x00, 0xe4, 0x03, 0x00, 0x00,
  0x90, 0x03, 0x00, 0x00, 0x3c, 0x03, 0x00, 0x00, 0xfc, 0x02, 0x00, 0x00,
  0xbc, 0x02, 0x00, 0x00, 0x70, 0x02, 0x00, 0x00, 0x0c, 0x02, 0x00, 0x00,
  0x78, 0x01, 0x00, 0x00, 0xdc, 0x00, 0x00, 0x00, 0x60, 0x00, 0x00, 0x00,
  0x04, 0x00, 0x00, 0x00, 0x5e, 0xfc, 0xff, 0xff, 0x00, 0x00, 0x00, 0x01,
  0x14, 0x00, 0x00, 0x00, 0x1c, 0x00, 0x00, 0x00, 0x1c, 0x00, 0x00, 0x00,
  0x0b, 0x00, 0x00, 0x00, 0x34, 0x00, 0x00, 0x00, 0x02, 0x00, 0x00, 0x00,
  0xff, 0xff, 0xff, 0xff, 0x01, 0x00, 0x00, 0x00, 0x48, 0xfc, 0xff, 0xff,
  0x1b, 0x00, 0x00, 0x00, 0x53, 0x74, 0x61, 0x74, 0x65, 0x66, 0x75, 0x6c,
  0x50, 0x61, 0x72, 0x74, 0x69, 0x74, 0x69, 0x6f, 0x6e, 0x65, 0x64, 0x43,
  0x61, 0x6c, 0x6c, 0x5f, 0x31, 0x3a, 0x30, 0x00, 0x02, 0x00, 0x00, 0x00,
  0x01, 0x00, 0x00, 0x00, 0x01, 0x00, 0x00, 0x00, 0xb6, 0xfc, 0xff, 0xff,
  0x00, 0x00, 0x00, 0x01, 0x14, 0x00, 0x00, 0x00, 0x1c, 0x00, 0x00, 0x00,
  0x1c, 0x00, 0x00, 0x00, 0x0a, 0x00, 0x00, 0x00, 0x54, 0x00, 0x00, 0x00,
  0x02, 0x00, 0x00, 0x00, 0xff, 0xff, 0xff, 0xff, 0x01, 0x00, 0x00, 0x00,
  0xa0, 0xfc, 0xff, 0xff, 0x38, 0x00, 0x00, 0x00, 0x73, 0x65, 0x71, 0x75,
  0x65, 0x6e, 0x74, 0x69, 0x61, 0x6c, 0x5f, 0x31, 0x2f, 0x64, 0x65, 0x6e,
  0x73, 0x65, 0x5f, 0x32, 0x5f, 0x31, 0x2f, 0x4d, 0x61, 0x74, 0x4d, 0x75,
  0x6c, 0x3b, 0x73, 0x65, 0x71, 0x75, 0x65, 0x6e, 0x74, 0x69, 0x61, 0x6c,
  0x5f, 0x31, 0x2f, 0x64, 0x65, 0x6e, 0x73, 0x65, 0x5f, 0x32, 0x5f, 0x31,
  0x2f, 0x41, 0x64, 0x64, 0x00, 0x00, 0x00, 0x00, 0x02, 0x00, 0x00, 0x00,
  0x01, 0x00, 0x00, 0x00, 0x01, 0x00, 0x00, 0x00, 0x2e, 0xfd, 0xff, 0xff,
  0x00, 0x00, 0x00, 0x01, 0x14, 0x00, 0x00, 0x00, 0x1c, 0x00, 0x00, 0x00,
  0x1c, 0x00, 0x00, 0x00, 0x09, 0x00, 0x00, 0x00, 0x74, 0x00, 0x00, 0x00,
  0x02, 0x00, 0x00, 0x00, 0xff, 0xff, 0xff, 0xff, 0x08, 0x00, 0x00, 0x00,
  0x18, 0xfd, 0xff, 0xff, 0x58, 0x00, 0x00, 0x00, 0x73, 0x65, 0x71, 0x75,
  0x65, 0x6e, 0x74, 0x69, 0x61, 0x6c, 0x5f, 0x31, 0x2f, 0x64, 0x65, 0x6e,
  0x73, 0x65, 0x5f, 0x31, 0x5f, 0x32, 0x2f, 0x4d, 0x61, 0x74, 0x4d, 0x75,
  0x6c, 0x3b, 0x73, 0x65, 0x71, 0x75, 0x65, 0x6e, 0x74, 0x69, 0x61, 0x6c,
  0x5f, 0x31, 0x2f, 0x64, 0x65, 0x6e, 0x73, 0x65, 0x5f, 0x31, 0x5f, 0x32,
  0x2f, 0x52, 0x65, 0x6c, 0x75, 0x3b, 0x73, 0x65, 0x71, 0x75, 0x65, 0x6e,
  0x74, 0x69, 0x61, 0x6c, 0x5f, 0x31, 0x2f, 0x64, 0x65, 0x6e, 0x73, 0x65,
  0x5f, 0x31, 0x5f, 0x32, 0x2f, 0x42, 0x69, 0x61, 0x73, 0x41, 0x64, 0x64,
  0x00, 0x00, 0x00, 0x00, 0x02, 0x00, 0x00, 0x00, 0x01, 0x00, 0x00, 0x00,
  0x08, 0x00, 0x00, 0x00, 0xc6, 0xfd, 0xff, 0xff, 0x00, 0x00, 0x00, 0x01,
  0x14, 0x00, 0x00, 0x00, 0x1c, 0x00, 0x00, 0x00, 0x1c, 0x00, 0x00, 0x00,
  0x08, 0x00, 0x00, 0x00, 0x6c, 0x00, 0x00, 0x00, 0x02, 0x00, 0x00, 0x00,
  0xff, 0xff, 0xff, 0xff, 0x10, 0x00, 0x00, 0x00, 0xb0, 0xfd, 0xff, 0xff,
  0x52, 0x00, 0x00, 0x00, 0x73, 0x65, 0x71, 0x75, 0x65, 0x6e, 0x74, 0x69,
  0x61, 0x6c, 0x5f, 0x31, 0x2f, 0x64, 0x65, 0x6e, 0x73, 0x65, 0x5f, 0x31,
  0x2f, 0x4d, 0x61, 0x74, 0x4d, 0x75, 0x6c, 0x3b, 0x73, 0x65, 0x71, 0x75,
  0x65, 0x6e, 0x74, 0x69, 0x61, 0x6c, 0x5f, 0x31, 0x2f, 0x64, 0x65, 0x6e,
  0x73, 0x65, 0x5f, 0x31, 0x2f, 0x52, 0x65, 0x6c, 0x75, 0x3b, 0x73, 0x65,
  0x71, 0x75, 0x65, 0x6e, 0x74, 0x69, 0x61, 0x6c, 0x5f, 0x31, 0x2f, 0x64,
  0x65, 0x6e, 0x73, 0x65, 0x5f, 0x31, 0x2f, 0x42, 0x69, 0x61, 0x73, 0x41,
  0x64, 0x64, 0x00, 0x00, 0x02, 0x00, 0x00, 0x00, 0x01, 0x00, 0x00, 0x00,
  0x10, 0x00, 0x00, 0x00, 0xa6, 0xfe, 0xff, 0xff, 0x00, 0x00, 0x00, 0x01,
  0x10, 0x00, 0x00, 0x00, 0x10, 0x00, 0x00, 0x00, 0x07, 0x00, 0x00, 0x00,
  0x44, 0x00, 0x00, 0x00, 0x30, 0xfe, 0xff, 0xff, 0x36, 0x00, 0x00, 0x00,
  0x73, 0x65, 0x71, 0x75, 0x65, 0x6e, 0x74, 0x69, 0x61, 0x6c, 0x5f, 0x31,
  0x2f, 0x64, 0x65, 0x6e, 0x73, 0x65, 0x5f, 0x31, 0x2f, 0x52, 0x65, 0x6c,
  0x75, 0x3b, 0x73, 0x65, 0x71, 0x75, 0x65, 0x6e, 0x74, 0x69, 0x61, 0x6c,
  0x5f, 0x31, 0x2f, 0x64, 0x65, 0x6e, 0x73, 0x65, 0x5f, 0x31, 0x2f, 0x42,
  0x69, 0x61, 0x73, 0x41, 0x64, 0x64, 0x00, 0x00, 0x01, 0x00, 0x00, 0x00,
  0x10, 0x00, 0x00, 0x00, 0x06, 0xff, 0xff, 0xff, 0x00, 0x00, 0x00, 0x01,
  0x10, 0x00, 0x00, 0x00, 0x10, 0x00, 0x00, 0x00, 0x06, 0x00, 0x00, 0x00,
  0x28, 0x00, 0x00, 0x00, 0x90, 0xfe, 0xff, 0xff, 0x1b, 0x00, 0x00, 0x00,
  0x73, 0x65, 0x71, 0x75, 0x65, 0x6e, 0x74, 0x69, 0x61, 0x6c, 0x5f, 0x31,
  0x2f, 0x64, 0x65, 0x6e, 0x73, 0x65, 0x5f, 0x31, 0x2f, 0x4d, 0x61, 0x74,
  0x4d, 0x75, 0x6c, 0x00, 0x02, 0x00, 0x00, 0x00, 0x10, 0x00, 0x00, 0x00,
  0x04, 0x00, 0x00, 0x00, 0x4e, 0xff, 0xff, 0xff, 0x00, 0x00, 0x00, 0x01,
  0x10, 0x00, 0x00, 0x00, 0x10, 0x00, 0x00, 0x00, 0x05, 0x00, 0x00, 0x00,
  0x1c, 0x00, 0x00, 0x00, 0xd8, 0xfe, 0xff, 0xff, 0x0f, 0x00, 0x00, 0x00,
  0x61, 0x72, 0x69, 0x74, 0x68, 0x2e, 0x63, 0x6f, 0x6e, 0x73, 0x74, 0x61,
  0x6e, 0x74, 0x33, 0x00, 0x02, 0x00, 0x00, 0x00, 0x08, 0x00, 0x00, 0x00,
  0x10, 0x00, 0x00, 0x00, 0x8a, 0xff, 0xff, 0xff, 0x00, 0x00, 0x00, 0x01,
  0x10, 0x00, 0x00, 0x00, 0x10, 0x00, 0x00, 0x00, 0x04, 0x00, 0x00, 0x00,
  0x1c, 0x00, 0x00, 0x00, 0x14, 0xff, 0xff, 0xff, 0x0f, 0x00, 0x00, 0x00,
  0x61, 0x72, 0x69, 0x74, 0x68, 0x2e, 0x63, 0x6f, 0x6e, 0x73, 0x74, 0x61,
  0x6e, 0x74, 0x32, 0x00, 0x02, 0x00, 0x00, 0x00, 0x01, 0x00, 0x00, 0x00,
  0x08, 0x00, 0x00, 0x00, 0xc6, 0xff, 0xff, 0xff, 0x00, 0x00, 0x00, 0x01,
  0x10, 0x00, 0x00, 0x00, 0x10, 0x00, 0x00, 0x00, 0x03, 0x00, 0x00, 0x00,
  0x1c, 0x00, 0x00, 0x00, 0x50, 0xff, 0xff, 0xff, 0x0f, 0x00, 0x00, 0x00,
  0x61, 0x72, 0x69, 0x74, 0x68, 0x2e, 0x63, 0x6f, 0x6e, 0x73, 0x74, 0x61,
  0x6e, 0x74, 0x31, 0x00, 0x01, 0x00, 0x00, 0x00, 0x01, 0x00, 0x00, 0x00,
  0x00, 0x00, 0x16, 0x00, 0x18, 0x00, 0x14, 0x00, 0x00, 0x00, 0x10, 0x00,
  0x0c, 0x00, 0x08, 0x00, 0x00, 0x00, 0x00, 0x00, 0x00, 0x00, 0x07, 0x00,
  0x16, 0x00, 0x00, 0x00, 0x00, 0x00, 0x00, 0x01, 0x10, 0x00, 0x00, 0x00,
  0x10, 0x00, 0x00, 0x00, 0x02, 0x00, 0x00, 0x00, 0x1c, 0x00, 0x00, 0x00,
  0xa0, 0xff, 0xff, 0xff, 0x0e, 0x00, 0x00, 0x00, 0x61, 0x72, 0x69, 0x74,
  0x68, 0x2e, 0x63, 0x6f, 0x6e, 0x73, 0x74, 0x61, 0x6e, 0x74, 0x00, 0x00,
  0x01, 0x00, 0x00, 0x00, 0x08, 0x00, 0x00, 0x00, 0x00, 0x00, 0x16, 0x00,
  0x1c, 0x00, 0x18, 0x00, 0x00, 0x00, 0x14, 0x00, 0x10, 0x00, 0x0c, 0x00,
  0x00, 0x00, 0x00, 0x00, 0x08, 0x00, 0x07, 0x00, 0x16, 0x00, 0x00, 0x00,
  0x00, 0x00, 0x00, 0x01, 0x14, 0x00, 0x00, 0x00, 0x20, 0x00, 0x00, 0x00,
  0x20, 0x00, 0x00, 0x00, 0x01, 0x00, 0x00, 0x00, 0x3c, 0x00, 0x00, 0x00,
  0x02, 0x00, 0x00, 0x00, 0xff, 0xff, 0xff, 0xff, 0x04, 0x00, 0x00, 0x00,
  0x04, 0x00, 0x04, 0x00, 0x04, 0x00, 0x00, 0x00, 0x1e, 0x00, 0x00, 0x00,
  0x73, 0x65, 0x72, 0x76, 0x69, 0x6e, 0x67, 0x5f, 0x64, 0x65, 0x66, 0x61,
  0x75, 0x6c, 0x74, 0x5f, 0x6b, 0x65, 0x72, 0x61, 0x73, 0x5f, 0x74, 0x65,
  0x6e, 0x73, 0x6f, 0x72, 0x3a, 0x30, 0x00, 0x00, 0x02, 0x00, 0x00, 0x00,
  0x01, 0x00, 0x00, 0x00, 0x04, 0x00, 0x00, 0x00, 0x02, 0x00, 0x00, 0x00,
  0x20, 0x00, 0x00, 0x00, 0x04, 0x00, 0x00, 0x00, 0xf4, 0xff, 0xff, 0xff,
  0x0e, 0x00, 0x00, 0x00, 0x00, 0x00, 0x00, 0x0e, 0x0c, 0x00, 0x0c, 0x00,
  0x0b, 0x00, 0x00, 0x00, 0x00, 0x00, 0x04, 0x00, 0x0c, 0x00, 0x00, 0x00,
  0x09, 0x00, 0x00, 0x00, 0x00, 0x00, 0x00, 0x09
};

