const unsigned char model[] = {
  0x1c, 0x00, 0x00, 0x00, 0x54, 0x46, 0x4c, 0x33, 0x14, 0x00, 0x20, 0x00,
  0x1c, 0x00, 0x18, 0x00, 0x14, 0x00, 0x10, 0x00, 0x0c, 0x00, 0x00, 0x00,
  0x08, 0x00, 0x04, 0x00, 0x14, 0x00, 0x00, 0x00, 0x1c, 0x00, 0x00, 0x00,
  0x8c, 0x00, 0x00, 0x00, 0xe4, 0x00, 0x00, 0x00, 0x90, 0x05, 0x00, 0x00,
  0xa0, 0x05, 0x00, 0x00, 0x20, 0x0b, 0x00, 0x00, 0x03, 0x00, 0x00, 0x00,
  0x01, 0x00, 0x00, 0x00, 0x04, 0x00, 0x00, 0x00, 0x22, 0xfa, 0xff, 0xff,
  0x0c, 0x00, 0x00, 0x00, 0x1c, 0x00, 0x00, 0x00, 0x3c, 0x00, 0x00, 0x00,
  0x0f, 0x00, 0x00, 0x00, 0x73, 0x65, 0x72, 0x76, 0x69, 0x6e, 0x67, 0x5f,
  0x64, 0x65, 0x66, 0x61, 0x75, 0x6c, 0x74, 0x00, 0x01, 0x00, 0x00, 0x00,
  0x04, 0x00, 0x00, 0x00, 0x90, 0xff, 0xff, 0xff, 0x0a, 0x00, 0x00, 0x00,
  0x04, 0x00, 0x00, 0x00, 0x08, 0x00, 0x00, 0x00, 0x6f, 0x75, 0x74, 0x70,
  0x75, 0x74, 0x5f, 0x30, 0x00, 0x00, 0x00, 0x00, 0x01, 0x00, 0x00, 0x00,
  0x04, 0x00, 0x00, 0x00, 0x12, 0xfb, 0xff, 0xff, 0x04, 0x00, 0x00, 0x00,
  0x0c, 0x00, 0x00, 0x00, 0x6b, 0x65, 0x72, 0x61, 0x73, 0x5f, 0x74, 0x65,
  0x6e, 0x73, 0x6f, 0x72, 0x00, 0x00, 0x00, 0x00, 0x02, 0x00, 0x00, 0x00,
  0x34, 0x00, 0x00, 0x00, 0x04, 0x00, 0x00, 0x00, 0xdc, 0xff, 0xff, 0xff,
  0x0d, 0x00, 0x00, 0x00, 0x04, 0x00, 0x00, 0x00, 0x13, 0x00, 0x00, 0x00,
  0x43, 0x4f, 0x4e, 0x56, 0x45, 0x52, 0x53, 0x49, 0x4f, 0x4e, 0x5f, 0x4d,
  0x45, 0x54, 0x41, 0x44, 0x41, 0x54, 0x41, 0x00, 0x08, 0x00, 0x0c, 0x00,
  0x08, 0x00, 0x04, 0x00, 0x08, 0x00, 0x00, 0x00, 0x0c, 0x00, 0x00, 0x00,
  0x04, 0x00, 0x00, 0x00, 0x13, 0x00, 0x00, 0x00, 0x6d, 0x69, 0x6e, 0x5f,
  0x72, 0x75, 0x6e, 0x74, 0x69, 0x6d, 0x65, 0x5f, 0x76, 0x65, 0x72, 0x73,
  0x69, 0x6f, 0x6e, 0x00, 0x0e, 0x00, 0x00, 0x00, 0xa8, 0x04, 0x00, 0x00,
  0xa0, 0x04, 0x00, 0x00, 0x70, 0x04, 0x00, 0x00, 0x54, 0x04, 0x00, 0x00,
  0x24, 0x04, 0x00, 0x00, 0x14, 0x02, 0x00, 0x00, 0x04, 0x01, 0x00, 0x00,
  0xb4, 0x00, 0x00, 0x00, 0xac, 0x00, 0x00, 0x00, 0xa4, 0x00, 0x00, 0x00,
  0x9c, 0x00, 0x00, 0x00, 0x94, 0x00, 0x00, 0x00, 0x74, 0x00, 0x00, 0x00,
  0x04, 0x00, 0x00, 0x00, 0xc6, 0xfb, 0xff, 0xff, 0x04, 0x00, 0x00, 0x00,
  0x60, 0x00, 0x00, 0x00, 0x0c, 0x00, 0x00, 0x00, 0x08, 0x00, 0x0e, 0x00,
  0x08, 0x00, 0x04, 0x00, 0x08, 0x00, 0x00, 0x00, 0x10, 0x00, 0x00, 0x00,
  0x28, 0x00, 0x00, 0x00, 0x00, 0x00, 0x06, 0x00, 0x08, 0x00, 0x04, 0x00,
  0x06, 0x00, 0x00, 0x00, 0x04, 0x00, 0x00, 0x00, 0x01, 0x00, 0x00, 0x00,
  0xea, 0x03, 0x00, 0x00, 0x0c, 0x00, 0x18, 0x00, 0x14, 0x00, 0x10, 0x00,
  0x0c, 0x00, 0x04, 0x00, 0x0c, 0x00, 0x00, 0x00, 0x11, 0xcb, 0x38, 0xf1,
  0x2f, 0x18, 0x93, 0x81, 0x02, 0x00, 0x00, 0x00, 0x02, 0x00, 0x00, 0x00,
  0x04, 0x00, 0x00, 0x00, 0x06, 0x00, 0x00, 0x00, 0x32, 0x2e, 0x32, 0x30,
  0x2e, 0x30, 0x00, 0x00, 0x32, 0xfc, 0xff, 0xff, 0x04, 0x00, 0x00, 0x00,
  0x10, 0x00, 0x00, 0x00, 0x31, 0x2e, 0x31, 0x34, 0x2e, 0x30, 0x00, 0x00,
  0x00, 0x00, 0x00, 0x00, 0x00, 0x00, 0x00, 0x00, 0xb4, 0xf6, 0xff, 0xff,
  0xb8, 0xf6, 0xff, 0xff, 0xbc, 0xf6, 0xff, 0xff, 0xc0, 0xf6, 0xff, 0xff,
  0x5e, 0xfc, 0xff, 0xff, 0x04, 0x00, 0x00, 0x00, 0x40, 0x00, 0x00, 0x00,
  0x24, 0xdf, 0xab, 0x3d, 0x43, 0xf0, 0x69, 0xbd, 0x1a, 0xfe, 0xa1, 0xbd,
  0x7b, 0xd2, 0x5e, 0x3e, 0x7e, 0xd3, 0x80, 0x3b, 0xce, 0x79, 0x7c, 0x3e,
  0x44, 0x88, 0x0a, 0x3e, 0x04, 0xf1, 0x42, 0xbd, 0x9c, 0x50, 0xc4, 0xb8,
  0x5e, 0x0b, 0xc2, 0xbc, 0x00, 0x00, 0x00, 0x00, 0x00, 0x00, 0x00, 0x00,
  0x99, 0xbb, 0x92, 0x3e, 0x47, 0xe6, 0x80, 0x3e, 0xd7, 0xf4, 0xed, 0x3b,
  0xfe, 0xd9, 0x89, 0x3e, 0xaa, 0xfc, 0xff, 0xff, 0x04, 0x00, 0x00, 0x00,
  0x00, 0x01, 0x00, 0x00, 0x4f, 0x1c, 0x9d, 0x3e, 0x0d, 0x57, 0x1b, 0xbf,
  0x19, 0x18, 0x2d, 0x3f, 0x57, 0xe4, 0xf0, 0xbd, 0x78, 0xf9, 0x08, 0xbe,
  0xdb, 0x98, 0x17, 0x3f, 0xed, 0xec, 0x6e, 0xbe, 0x5a, 0x00, 0xd7, 0xbe,
  0x49, 0xa0, 0x69, 0x3e, 0x20, 0x0c, 0x55, 0x3f, 0x31, 0xee, 0x8b, 0x3e,
  0xe0, 0xab, 0xf8, 0x3d, 0xd8, 0x21, 0xc9, 0x3e, 0xa0, 0xf2, 0xa5, 0xbe,
  0x91, 0xd7, 0x0b, 0x3f, 0x24, 0xbc, 0xe3, 0xbe, 0x8a, 0xc3, 0x4e, 0x3d,
  0x69, 0xb8, 0x2a, 0xbe, 0x67, 0xf6, 0xa2, 0xbe, 0x13, 0x90, 0xb7, 0x3e,
  0xef, 0x9e, 0xc7, 0x3e, 0x0d, 0x79, 0x25, 0xbf, 0x46, 0xfe, 0x15, 0xbd,
  0xdb, 0xe1, 0xba, 0x3e, 0xc5, 0xd9, 0x7a, 0x3e, 0x8b, 0xe7, 0x02, 0xbf,
  0x7c, 0x36, 0xc6, 0x3e, 0xad, 0xea, 0x25, 0x3e, 0xb8, 0x0d, 0xed, 0x3e,
  0x36, 0x9f, 0xbe, 0x3e, 0xc7, 0x7d, 0x35, 0xbe, 0x3b, 0xcd, 0xe8, 0xbe,
  0xb5, 0x68, 0xc0, 0x3e, 0xab, 0x01, 0x23, 0x3f, 0x9f, 0xed, 0x8e, 0xbe,
  0x2d, 0xf1, 0xb2, 0x3a, 0x45, 0x12, 0x81, 0x3d, 0xe4, 0x43, 0x9f, 0xbe,
  0xfb, 0x83, 0x6f, 0x3e, 0xd0, 0x5d, 0x69, 0x3f, 0x7a, 0x09, 0x07, 0xbe,
  0xda, 0xd2, 0x89, 0x3e, 0xe7, 0x2a, 0xc2, 0xbe, 0xb0, 0x01, 0x0b, 0xbd,
  0x5c, 0xb4, 0x71, 0xbe, 0x4c, 0xf1, 0x4e, 0x3e, 0x50, 0x55, 0xb6, 0xbe,
  0x4e, 0x2e, 0xf9, 0xbe, 0xf3, 0xb9, 0x18, 0x3f, 0xb9, 0x0d, 0x1a, 0xbf,
  0x3b, 0xd8, 0x06, 0x3f, 0xb7, 0xf8, 0xb5, 0xbe, 0xb3, 0xf7, 0xff, 0x3e,
  0x33, 0xb2, 0x0c, 0xbf, 0x33, 0x4d, 0x27, 0xbe, 0xc9, 0xba, 0x82, 0x3e,
  0x04, 0x90, 0x01, 0x3f, 0x18, 0x89, 0x0f, 0xbe, 0x00, 0x07, 0x57, 0xbe,
  0xfa, 0xb8, 0x9e, 0x3c, 0x85, 0xdd, 0x14, 0x3f, 0xf4, 0xd9, 0xdb, 0x3d,
  0x20, 0xb9, 0xc8, 0x3e, 0x83, 0x81, 0xe0, 0xbe, 0xb6, 0xfd, 0xff, 0xff,
  0x04, 0x00, 0x00, 0x00, 0x00, 0x02, 0x00, 0x00, 0xcc, 0xe1, 0x9c, 0xbe,
  0xe8, 0x1b, 0x8c, 0xbe, 0xb0, 0x65, 0x00, 0xbe, 0x10, 0x90, 0xc6, 0xbd,
  0x00, 0x1d, 0xec, 0xbd, 0x1c, 0x03, 0xad, 0xbe, 0x20, 0xb9, 0x77, 0xbd,
  0x50, 0xcb, 0x79, 0xbe, 0x38, 0x52, 0xeb, 0xbe, 0x80, 0x15, 0x52, 0x3e,
  0xb4, 0xd5, 0xaf, 0x3e, 0x10, 0x61, 0xd9, 0x3e, 0x10, 0x8c, 0x8f, 0x3e,
  0xd0, 0x61, 0xa7, 0xbd, 0x10, 0x28, 0x96, 0x3e, 0xc0, 0xc3, 0xc8, 0xbd,
  0x66, 0x05, 0xf6, 0x3e, 0xc6, 0xff, 0xd1, 0xbd, 0xa0, 0xc7, 0x8a, 0xbe,
  0x01, 0xef, 0x29, 0x3f, 0xae, 0x0a, 0x7f, 0x3e, 0xe5, 0xfb, 0x26, 0x3f,
  0x84, 0x1d, 0xd5, 0x3e, 0xba, 0x8b, 0x3c, 0xbe, 0x4a, 0xd0, 0xbc, 0xbe,
  0xe7, 0x93, 0xeb, 0xbd, 0x30, 0x34, 0x71, 0x3e, 0xe0, 0xdb, 0xf7, 0xbd,
  0xc9, 0x47, 0x4f, 0x3f, 0x2b, 0xb2, 0x4c, 0x3f, 0xb3, 0xcb, 0x12, 0x3f,
  0x16, 0xb9, 0x0f, 0x3f, 0x0a, 0xe8, 0xb1, 0xbe, 0x6f, 0xb4, 0x4c, 0x3e,
  0x49, 0xcd, 0x13, 0x3f, 0x2d, 0x3f, 0x0b, 0xbf, 0x50, 0xd5, 0x88, 0x3e,
  0xbc, 0x7f, 0x30, 0x3c, 0x0c, 0x33, 0x1e, 0x3e, 0x99, 0x7e, 0x8a, 0x3e,
  0x77, 0x39, 0x17, 0x3f, 0x95, 0x0c, 0xba, 0x3e, 0x68, 0xcc, 0x41, 0x3e,
  0xb0, 0x4b, 0x87, 0x3e, 0x40, 0x2d, 0xbc, 0xbe, 0x8f, 0x88, 0x68, 0xbf,
  0x17, 0x71, 0xf7, 0xbd, 0xa6, 0xe3, 0xc2, 0x3e, 0x80, 0x6f, 0x9b, 0x3c,
  0xbc, 0x68, 0xbd, 0xbe, 0xc0, 0x20, 0x28, 0xbd, 0x00, 0x14, 0xa1, 0x3e,
  0x00, 0x52, 0x36, 0xbe, 0x70, 0x92, 0x5e, 0x3e, 0x90, 0x85, 0x8d, 0xbe,
  0x38, 0x7f, 0x88, 0x3e, 0x84, 0xb6, 0xdb, 0xbe, 0xc0, 0x75, 0x1a, 0x3e,
  0xe0, 0x16, 0x2a, 0x3d, 0x50, 0xdb, 0x79, 0x3e, 0x00, 0x57, 0xe3, 0xbd,
  0x18, 0x02, 0xcb, 0xbe, 0xa0, 0x66, 0xd8, 0x3d, 0x60, 0x9a, 0xb7, 0xbe,
  0x70, 0xff, 0x26, 0x3e, 0x0d, 0xba, 0x05, 0xbf, 0x1a, 0x1a, 0x1b, 0xbf,
  0x6e, 0x38, 0x41, 0x3f, 0x96, 0x57, 0x97, 0x3e, 0x7b, 0xe7, 0x31, 0x3f,
  0x9c, 0xbd, 0x1a, 0x3f, 0x03, 0xa9, 0x15, 0xbf, 0xc6, 0x81, 0x29, 0xbf,
  0xd7, 0x83, 0xa7, 0x3e, 0xa0, 0x5c, 0xe3, 0x3d, 0x70, 0x57, 0x52, 0x3e,
  0x97, 0x37, 0x6f, 0x3f, 0x7c, 0x72, 0x28, 0x3f, 0xf5, 0x17, 0x88, 0x3e,
  0x8f, 0x0d, 0x8c, 0x3e, 0xf9, 0x87, 0x9f, 0xbe, 0x04, 0xa0, 0x92, 0xbe,
  0xad, 0xf5, 0xf8, 0x3e, 0x4f, 0x40, 0xc3, 0xbd, 0x6b, 0x17, 0xe6, 0xbd,
  0x3c, 0x0b, 0x3d, 0x3e, 0x2a, 0x27, 0x24, 0xbf, 0x56, 0xf0, 0x2a, 0x3f,
  0x21, 0x50, 0x27, 0x3f, 0x66, 0x4a, 0x22, 0x3f, 0x04, 0xbf, 0xde, 0x3e,
  0x4c, 0x83, 0xe7, 0xbe, 0xb9, 0x9e, 0x0a, 0x3d, 0xc1, 0x18, 0x78, 0xbf,
  0xb3, 0x0f, 0x4b, 0xbf, 0xea, 0xef, 0xc9, 0x3d, 0xd8, 0x07, 0x6b, 0xbe,
  0x60, 0x3d, 0x83, 0x3d, 0xcd, 0x58, 0x09, 0xbe, 0xb0, 0xa6, 0xc0, 0xbe,
  0xa5, 0xcf, 0x35, 0xbe, 0x4f, 0x26, 0xfc, 0xbe, 0x07, 0x21, 0x02, 0xbf,
  0x10, 0xfc, 0xec, 0xbe, 0xeb, 0x9d, 0xa6, 0x3e, 0xc0, 0x7e, 0xb6, 0x3e,
  0x98, 0xe0, 0x26, 0xbe, 0x3c, 0x63, 0x93, 0xbe, 0x00, 0x61, 0xf7, 0xbc,
  0x01, 0xb3, 0xe9, 0xbe, 0xac, 0xe5, 0xf7, 0xbe, 0xb8, 0xcb, 0x84, 0xbe,
  0x9a, 0x06, 0x7c, 0xbf, 0xd2, 0x6c, 0x52, 0x3d, 0x85, 0x00, 0x3b, 0x3f,
  0x4f, 0x79, 0x98, 0xbe, 0x55, 0x22, 0xec, 0xbe, 0xa6, 0xb6, 0xe5, 0xbd,
  0xec, 0x4e, 0xd4, 0xbc, 0x90, 0x5c, 0x87, 0x3f, 0x4c, 0xea, 0x82, 0x3f,
  0x6a, 0x8e, 0xf3, 0x3d, 0x00, 0x35, 0xcc, 0xbc, 0x00, 0x77, 0x29, 0x3d,
  0x1b, 0xe9, 0x51, 0xbf, 0x36, 0xa7, 0x26, 0xbf, 0x74, 0xfa, 0xd4, 0xbe,
  0xaf, 0xe8, 0x60, 0x3e, 0xc2, 0xff, 0xff, 0xff, 0x04, 0x00, 0x00, 0x00,
  0x20, 0x00, 0x00, 0x00, 0x1c, 0x59, 0x96, 0x3e, 0x59, 0x44, 0x3b, 0xbf,
  0x4c, 0x5a, 0xef, 0x3e, 0x84, 0xf4, 0x36, 0xbf, 0x63, 0xf6, 0xad, 0xbf,
  0xae, 0xca, 0x8c, 0x3f, 0x3c, 0xe4, 0xa5, 0xbe, 0x59, 0x63, 0x86, 0x3f,
  0xee, 0xff, 0xff, 0xff, 0x04, 0x00, 0x00, 0x00, 0x04, 0x00, 0x00, 0x00,
  0x50, 0x0c, 0xe0, 0xbd, 0x00, 0x00, 0x06, 0x00, 0x08, 0x00, 0x04, 0x00,
  0x06, 0x00, 0x00, 0x00, 0x04, 0x00, 0x00, 0x00, 0x20, 0x00, 0x00, 0x00,
  0x00, 0x00, 0x00, 0x00, 0xb4, 0xf5, 0xf5, 0x3d, 0xc1, 0xba, 0x43, 0xbd,
  0x00, 0x00, 0x00, 0x00, 0x48, 0x0f, 0x42, 0x3e, 0xf2, 0x14, 0xe2, 0xb9,
  0xbf, 0xcc, 0x21, 0xbd, 0xbf, 0x63, 0xba, 0x3d, 0x98, 0xfa, 0xff, 0xff,
  0x9c, 0xfa, 0xff, 0xff, 0x0f, 0x00, 0x00, 0x00, 0x4d, 0x4c, 0x49, 0x52,
  0x20, 0x43, 0x6f, 0x6e, 0x76, 0x65, 0x72, 0x74, 0x65, 0x64, 0x2e, 0x00,
  0x01, 0x00, 0x00, 0x00, 0x14, 0x00, 0x00, 0x00, 0x00, 0x00, 0x0e, 0x00,
  0x18, 0x00, 0x14, 0x00, 0x10, 0x00, 0x0c, 0x00, 0x08, 0x00, 0x04, 0x00,
  0x0e, 0x00, 0x00, 0x00, 0x14, 0x00, 0x00, 0x00, 0x1c, 0x00, 0x00, 0x00,
  0x08, 0x01, 0x00, 0x00, 0x0c, 0x01, 0x00, 0x00, 0x10, 0x01, 0x00, 0x00,
  0x04, 0x00, 0x00, 0x00, 0x6d, 0x61, 0x69, 0x6e, 0x00, 0x00, 0x00, 0x00,
  0x04, 0x00, 0x00, 0x00, 0xb0, 0x00, 0x00, 0x00, 0x68, 0x00, 0x00, 0x00,
  0x34, 0x00, 0x00, 0x00, 0x10, 0x00, 0x00, 0x00, 0x00, 0x00, 0x0a, 0x00,
  0x10, 0x00, 0x0c, 0x00, 0x08, 0x00, 0x04, 0x00, 0x0a, 0x00, 0x00, 0x00,
  0x0c, 0x00, 0x00, 0x00, 0x10, 0x00, 0x00, 0x00, 0x01, 0x00, 0x00, 0x00,
  0x01, 0x00, 0x00, 0x00, 0x0a, 0x00, 0x00, 0x00, 0x01, 0x00, 0x00, 0x00,
  0x09, 0x00, 0x00, 0x00, 0x9a, 0xff, 0xff, 0xff, 0x10, 0x00, 0x00, 0x00,
  0x00, 0x00, 0x00, 0x08, 0x0c, 0x00, 0x00, 0x00, 0x10, 0x00, 0x00, 0x00,
  0x44, 0xfb, 0xff, 0xff, 0x01, 0x00, 0x00, 0x00, 0x09, 0x00, 0x00, 0x00,
  0x03, 0x00, 0x00, 0x00, 0x08, 0x00, 0x00, 0x00, 0x03, 0x00, 0x00, 0x00,
  0x02, 0x00, 0x00, 0x00, 0xca, 0xff, 0xff, 0xff, 0x10, 0x00, 0x00, 0x00,
  0x00, 0x00, 0x00, 0x08, 0x10, 0x00, 0x00, 0x00, 0x14, 0x00, 0x00, 0x00,
  0xba, 0xff, 0xff, 0xff, 0x00, 0x00, 0x00, 0x01, 0x01, 0x00, 0x00, 0x00,
  0x08, 0x00, 0x00, 0x00, 0x03, 0x00, 0x00, 0x00, 0x07, 0x00, 0x00, 0x00,
  0x04, 0x00, 0x00, 0x00, 0x01, 0x00, 0x00, 0x00, 0x00, 0x00, 0x0e, 0x00,
  0x16, 0x00, 0x00, 0x00, 0x10, 0x00, 0x0c, 0x00, 0x0b, 0x00, 0x04, 0x00,
  0x0e, 0x00, 0x00, 0x00, 0x18, 0x00, 0x00, 0x00, 0x00, 0x00, 0x00, 0x08,
  0x18, 0x00, 0x00, 0x00, 0x1c, 0x00, 0x00, 0x00, 0x00, 0x00, 0x06, 0x00,
  0x08, 0x00, 0x07, 0x00, 0x06, 0x00, 0x00, 0x00, 0x00, 0x00, 0x00, 0x01,
  0x01, 0x00, 0x00, 0x00, 0x07, 0x00, 0x00, 0x00, 0x03, 0x00, 0x00, 0x00,
  0x00, 0x00, 0x00, 0x00, 0x05, 0x00, 0x00, 0x00, 0x06, 0x00, 0x00, 0x00,
  0x01, 0x00, 0x00, 0x00, 0x0a, 0x00, 0x00, 0x00, 0x01, 0x00, 0x00, 0x00,
  0x00, 0x00, 0x00, 0x00, 0x0b, 0x00, 0x00, 0x00, 0xe4, 0x03, 0x00, 0x00,
  0x90, 0x03, 0x00, 0x00, 0x3c, 0x03, 0x00, 0x00, 0xfc, 0x02, 0x00, 0x00,
  0xbc, 0x02, 0x00, 0x00, 0x70, 0x02, 0x00, 0x00, 0x0c, 0x02, 0x00, 0x00,
  0x78, 0x01, 0x00, 0x00, 0xdc, 0x00, 0x00, 0x00, 0x60, 0x00, 0x00, 0x00,
  0x04, 0x00, 0x00, 0x00, 0x5e, 0xfc, 0xff, 0xff, 0x00, 0x00, 0x00, 0x01,
  0x14, 0x00, 0x00, 0x00, 0x1c, 0x00, 0x00, 0x00, 0x1c, 0x00, 0x00, 0x00,
  0x0b, 0x00, 0x00, 0x00, 0x34, 0x00, 0x00, 0x00, 0x02, 0x00, 0x00, 0x00,
  0xff, 0xff, 0xff, 0xff, 0x01, 0x00, 0x00, 0x00, 0x48, 0xfc, 0xff, 0xff,
  0x1b, 0x00, 0x00, 0x00, 0x53, 0x74, 0x61, 0x74, 0x65, 0x66, 0x75, 0x6c,
  0x50, 0x61, 0x72, 0x74, 0x69, 0x74, 0x69, 0x6f, 0x6e, 0x65, 0x64, 0x43,
  0x61, 0x6c, 0x6c, 0x5f, 0x31, 0x3a, 0x30, 0x00, 0x02, 0x00, 0x00, 0x00,
  0x01, 0x00, 0x00, 0x00, 0x01, 0x00, 0x00, 0x00, 0xb6, 0xfc, 0xff, 0xff,
  0x00, 0x00, 0x00, 0x01, 0x14, 0x00, 0x00, 0x00, 0x1c, 0x00, 0x00, 0x00,
  0x1c, 0x00, 0x00, 0x00, 0x0a, 0x00, 0x00, 0x00, 0x54, 0x00, 0x00, 0x00,
  0x02, 0x00, 0x00, 0x00, 0xff, 0xff, 0xff, 0xff, 0x01, 0x00, 0x00, 0x00,
  0xa0, 0xfc, 0xff, 0xff, 0x38, 0x00, 0x00, 0x00, 0x73, 0x65, 0x71, 0x75,
  0x65, 0x6e, 0x74, 0x69, 0x61, 0x6c, 0x5f, 0x31, 0x2f, 0x64, 0x65, 0x6e,
  0x73, 0x65, 0x5f, 0x32, 0x5f, 0x31, 0x2f, 0x4d, 0x61, 0x74, 0x4d, 0x75,
  0x6c, 0x3b, 0x73, 0x65, 0x71, 0x75, 0x65, 0x6e, 0x74, 0x69, 0x61, 0x6c,
  0x5f, 0x31, 0x2f, 0x64, 0x65, 0x6e, 0x73, 0x65, 0x5f, 0x32, 0x5f, 0x31,
  0x2f, 0x41, 0x64, 0x64, 0x00, 0x00, 0x00, 0x00, 0x02, 0x00, 0x00, 0x00,
  0x01, 0x00, 0x00, 0x00, 0x01, 0x00, 0x00, 0x00, 0x2e, 0xfd, 0xff, 0xff,
  0x00, 0x00, 0x00, 0x01, 0x14, 0x00, 0x00, 0x00, 0x1c, 0x00, 0x00, 0x00,
  0x1c, 0x00, 0x00, 0x00, 0x09, 0x00, 0x00, 0x00, 0x74, 0x00, 0x00, 0x00,
  0x02, 0x00, 0x00, 0x00, 0xff, 0xff, 0xff, 0xff, 0x08, 0x00, 0x00, 0x00,
  0x18, 0xfd, 0xff, 0xff, 0x58, 0x00, 0x00, 0x00, 0x73, 0x65, 0x71, 0x75,
  0x65, 0x6e, 0x74, 0x69, 0x61, 0x6c, 0x5f, 0x31, 0x2f, 0x64, 0x65, 0x6e,
  0x73, 0x65, 0x5f, 0x31, 0x5f, 0x32, 0x2f, 0x4d, 0x61, 0x74, 0x4d, 0x75,
  0x6c, 0x3b, 0x73, 0x65, 0x71, 0x75, 0x65, 0x6e, 0x74, 0x69, 0x61, 0x6c,
  0x5f, 0x31, 0x2f, 0x64, 0x65, 0x6e, 0x73, 0x65, 0x5f, 0x31, 0x5f, 0x32,
  0x2f, 0x52, 0x65, 0x6c, 0x75, 0x3b, 0x73, 0x65, 0x71, 0x75, 0x65, 0x6e,
  0x74, 0x69, 0x61, 0x6c, 0x5f, 0x31, 0x2f, 0x64, 0x65, 0x6e, 0x73, 0x65,
  0x5f, 0x31, 0x5f, 0x32, 0x2f, 0x42, 0x69, 0x61, 0x73, 0x41, 0x64, 0x64,
  0x00, 0x00, 0x00, 0x00, 0x02, 0x00, 0x00, 0x00, 0x01, 0x00, 0x00, 0x00,
  0x08, 0x00, 0x00, 0x00, 0xc6, 0xfd, 0xff, 0xff, 0x00, 0x00, 0x00, 0x01,
  0x14, 0x00, 0x00, 0x00, 0x1c, 0x00, 0x00, 0x00, 0x1c, 0x00, 0x00, 0x00,
  0x08, 0x00, 0x00, 0x00, 0x6c, 0x00, 0x00, 0x00, 0x02, 0x00, 0x00, 0x00,
  0xff, 0xff, 0xff, 0xff, 0x10, 0x00, 0x00, 0x00, 0xb0, 0xfd, 0xff, 0xff,
  0x52, 0x00, 0x00, 0x00, 0x73, 0x65, 0x71, 0x75, 0x65, 0x6e, 0x74, 0x69,
  0x61, 0x6c, 0x5f, 0x31, 0x2f, 0x64, 0x65, 0x6e, 0x73, 0x65, 0x5f, 0x31,
  0x2f, 0x4d, 0x61, 0x74, 0x4d, 0x75, 0x6c, 0x3b, 0x73, 0x65, 0x71, 0x75,
  0x65, 0x6e, 0x74, 0x69, 0x61, 0x6c, 0x5f, 0x31, 0x2f, 0x64, 0x65, 0x6e,
  0x73, 0x65, 0x5f, 0x31, 0x2f, 0x52, 0x65, 0x6c, 0x75, 0x3b, 0x73, 0x65,
  0x71, 0x75, 0x65, 0x6e, 0x74, 0x69, 0x61, 0x6c, 0x5f, 0x31, 0x2f, 0x64,
  0x65, 0x6e, 0x73, 0x65, 0x5f, 0x31, 0x2f, 0x42, 0x69, 0x61, 0x73, 0x41,
  0x64, 0x64, 0x00, 0x00, 0x02, 0x00, 0x00, 0x00, 0x01, 0x00, 0x00, 0x00,
  0x10, 0x00, 0x00, 0x00, 0xa6, 0xfe, 0xff, 0xff, 0x00, 0x00, 0x00, 0x01,
  0x10, 0x00, 0x00, 0x00, 0x10, 0x00, 0x00, 0x00, 0x07, 0x00, 0x00, 0x00,
  0x44, 0x00, 0x00, 0x00, 0x30, 0xfe, 0xff, 0xff, 0x36, 0x00, 0x00, 0x00,
  0x73, 0x65, 0x71, 0x75, 0x65, 0x6e, 0x74, 0x69, 0x61, 0x6c, 0x5f, 0x31,
  0x2f, 0x64, 0x65, 0x6e, 0x73, 0x65, 0x5f, 0x31, 0x2f, 0x52, 0x65, 0x6c,
  0x75, 0x3b, 0x73, 0x65, 0x71, 0x75, 0x65, 0x6e, 0x74, 0x69, 0x61, 0x6c,
  0x5f, 0x31, 0x2f, 0x64, 0x65, 0x6e, 0x73, 0x65, 0x5f, 0x31, 0x2f, 0x42,
  0x69, 0x61, 0x73, 0x41, 0x64, 0x64, 0x00, 0x00, 0x01, 0x00, 0x00, 0x00,
  0x10, 0x00, 0x00, 0x00, 0x06, 0xff, 0xff, 0xff, 0x00, 0x00, 0x00, 0x01,
  0x10, 0x00, 0x00, 0x00, 0x10, 0x00, 0x00, 0x00, 0x06, 0x00, 0x00, 0x00,
  0x28, 0x00, 0x00, 0x00, 0x90, 0xfe, 0xff, 0xff, 0x1b, 0x00, 0x00, 0x00,
  0x73, 0x65, 0x71, 0x75, 0x65, 0x6e, 0x74, 0x69, 0x61, 0x6c, 0x5f, 0x31,
  0x2f, 0x64, 0x65, 0x6e, 0x73, 0x65, 0x5f, 0x31, 0x2f, 0x4d, 0x61, 0x74,
  0x4d, 0x75, 0x6c, 0x00, 0x02, 0x00, 0x00, 0x00, 0x10, 0x00, 0x00, 0x00,
  0x04, 0x00, 0x00, 0x00, 0x4e, 0xff, 0xff, 0xff, 0x00, 0x00, 0x00, 0x01,
  0x10, 0x00, 0x00, 0x00, 0x10, 0x00, 0x00, 0x00, 0x05, 0x00, 0x00, 0x00,
  0x1c, 0x00, 0x00, 0x00, 0xd8, 0xfe, 0xff, 0xff, 0x0f, 0x00, 0x00, 0x00,
  0x61, 0x72, 0x69, 0x74, 0x68, 0x2e, 0x63, 0x6f, 0x6e, 0x73, 0x74, 0x61,
  0x6e, 0x74, 0x33, 0x00, 0x02, 0x00, 0x00, 0x00, 0x08, 0x00, 0x00, 0x00,
  0x10, 0x00, 0x00, 0x00, 0x8a, 0xff, 0xff, 0xff, 0x00, 0x00, 0x00, 0x01,
  0x10, 0x00, 0x00, 0x00, 0x10, 0x00, 0x00, 0x00, 0x04, 0x00, 0x00, 0x00,
  0x1c, 0x00, 0x00, 0x00, 0x14, 0xff, 0xff, 0xff, 0x0f, 0x00, 0x00, 0x00,
  0x61, 0x72, 0x69, 0x74, 0x68, 0x2e, 0x63, 0x6f, 0x6e, 0x73, 0x74, 0x61,
  0x6e, 0x74, 0x32, 0x00, 0x02, 0x00, 0x00, 0x00, 0x01, 0x00, 0x00, 0x00,
  0x08, 0x00, 0x00, 0x00, 0xc6, 0xff, 0xff, 0xff, 0x00, 0x00, 0x00, 0x01,
  0x10, 0x00, 0x00, 0x00, 0x10, 0x00, 0x00, 0x00, 0x03, 0x00, 0x00, 0x00,
  0x1c, 0x00, 0x00, 0x00, 0x50, 0xff, 0xff, 0xff, 0x0f, 0x00, 0x00, 0x00,
  0x61, 0x72, 0x69, 0x74, 0x68, 0x2e, 0x63, 0x6f, 0x6e, 0x73, 0x74, 0x61,
  0x6e, 0x74, 0x31, 0x00, 0x01, 0x00, 0x00, 0x00, 0x01, 0x00, 0x00, 0x00,
  0x00, 0x00, 0x16, 0x00, 0x18, 0x00, 0x14, 0x00, 0x00, 0x00, 0x10, 0x00,
  0x0c, 0x00, 0x08, 0x00, 0x00, 0x00, 0x00, 0x00, 0x00, 0x00, 0x07, 0x00,
  0x16, 0x00, 0x00, 0x00, 0x00, 0x00, 0x00, 0x01, 0x10, 0x00, 0x00, 0x00,
  0x10, 0x00, 0x00, 0x00, 0x02, 0x00, 0x00, 0x00, 0x1c, 0x00, 0x00, 0x00,
  0xa0, 0xff, 0xff, 0xff, 0x0e, 0x00, 0x00, 0x00, 0x61, 0x72, 0x69, 0x74,
  0x68, 0x2e, 0x63, 0x6f, 0x6e, 0x73, 0x74, 0x61, 0x6e, 0x74, 0x00, 0x00,
  0x01, 0x00, 0x00, 0x00, 0x08, 0x00, 0x00, 0x00, 0x00, 0x00, 0x16, 0x00,
  0x1c, 0x00, 0x18, 0x00, 0x00, 0x00, 0x14, 0x00, 0x10, 0x00, 0x0c, 0x00,
  0x00, 0x00, 0x00, 0x00, 0x08, 0x00, 0x07, 0x00, 0x16, 0x00, 0x00, 0x00,
  0x00, 0x00, 0x00, 0x01, 0x14, 0x00, 0x00, 0x00, 0x20, 0x00, 0x00, 0x00,
  0x20, 0x00, 0x00, 0x00, 0x01, 0x00, 0x00, 0x00, 0x3c, 0x00, 0x00, 0x00,
  0x02, 0x00, 0x00, 0x00, 0xff, 0xff, 0xff, 0xff, 0x04, 0x00, 0x00, 0x00,
  0x04, 0x00, 0x04, 0x00, 0x04, 0x00, 0x00, 0x00, 0x1e, 0x00, 0x00, 0x00,
  0x73, 0x65, 0x72, 0x76, 0x69, 0x6e, 0x67, 0x5f, 0x64, 0x65, 0x66, 0x61,
  0x75, 0x6c, 0x74, 0x5f, 0x6b, 0x65, 0x72, 0x61, 0x73, 0x5f, 0x74, 0x65,
  0x6e, 0x73, 0x6f, 0x72, 0x3a, 0x30, 0x00, 0x00, 0x02, 0x00, 0x00, 0x00,
  0x01, 0x00, 0x00, 0x00, 0x04, 0x00, 0x00, 0x00, 0x02, 0x00, 0x00, 0x00,
  0x20, 0x00, 0x00, 0x00, 0x04, 0x00, 0x00, 0x00, 0xf4, 0xff, 0xff, 0xff,
  0x0e, 0x00, 0x00, 0x00, 0x00, 0x00, 0x00, 0x0e, 0x0c, 0x00, 0x0c, 0x00,
  0x0b, 0x00, 0x00, 0x00, 0x00, 0x00, 0x04, 0x00, 0x0c, 0x00, 0x00, 0x00,
  0x09, 0x00, 0x00, 0x00, 0x00, 0x00, 0x00, 0x09
};

